#ifndef SINE_WAVE_GENERATOR_H
#define SINE_WAVE_GENERATOR_H


unsigned int sine_wave_generator_len = 3196;
unsigned char sine_wave_generator[] = {
 0x1c, 0x00, 0x00, 0x00, 0x54, 0x46, 0x4c, 0x33, 0x14, 0x00, 0x20, 0x00,
  0x1c, 0x00, 0x18, 0x00, 0x14, 0x00, 0x10, 0x00, 0x0c, 0x00, 0x00, 0x00,
  0x08, 0x00, 0x04, 0x00, 0x14, 0x00, 0x00, 0x00, 0x1c, 0x00, 0x00, 0x00,
  0x94, 0x00, 0x00, 0x00, 0xec, 0x00, 0x00, 0x00, 0x08, 0x07, 0x00, 0x00,
  0x18, 0x07, 0x00, 0x00, 0x28, 0x0c, 0x00, 0x00, 0x03, 0x00, 0x00, 0x00,
  0x01, 0x00, 0x00, 0x00, 0x10, 0x00, 0x00, 0x00, 0x00, 0x00, 0x0a, 0x00,
  0x10, 0x00, 0x0c, 0x00, 0x08, 0x00, 0x04, 0x00, 0x0a, 0x00, 0x00, 0x00,
  0x0c, 0x00, 0x00, 0x00, 0x1c, 0x00, 0x00, 0x00, 0x38, 0x00, 0x00, 0x00,
  0x0f, 0x00, 0x00, 0x00, 0x73, 0x65, 0x72, 0x76, 0x69, 0x6e, 0x67, 0x5f,
  0x64, 0x65, 0x66, 0x61, 0x75, 0x6c, 0x74, 0x00, 0x01, 0x00, 0x00, 0x00,
  0x04, 0x00, 0x00, 0x00, 0x94, 0xff, 0xff, 0xff, 0x09, 0x00, 0x00, 0x00,
  0x04, 0x00, 0x00, 0x00, 0x07, 0x00, 0x00, 0x00, 0x64, 0x65, 0x6e, 0x73,
  0x65, 0x5f, 0x35, 0x00, 0x01, 0x00, 0x00, 0x00, 0x04, 0x00, 0x00, 0x00,
  0x86, 0xf9, 0xff, 0xff, 0x04, 0x00, 0x00, 0x00, 0x0d, 0x00, 0x00, 0x00,
  0x64, 0x65, 0x6e, 0x73, 0x65, 0x5f, 0x33, 0x5f, 0x69, 0x6e, 0x70, 0x75,
  0x74, 0x00, 0x00, 0x00, 0x02, 0x00, 0x00, 0x00, 0x34, 0x00, 0x00, 0x00,
  0x04, 0x00, 0x00, 0x00, 0xdc, 0xff, 0xff, 0xff, 0x0c, 0x00, 0x00, 0x00,
  0x04, 0x00, 0x00, 0x00, 0x13, 0x00, 0x00, 0x00, 0x43, 0x4f, 0x4e, 0x56,
  0x45, 0x52, 0x53, 0x49, 0x4f, 0x4e, 0x5f, 0x4d, 0x45, 0x54, 0x41, 0x44,
  0x41, 0x54, 0x41, 0x00, 0x08, 0x00, 0x0c, 0x00, 0x08, 0x00, 0x04, 0x00,
  0x08, 0x00, 0x00, 0x00, 0x0b, 0x00, 0x00, 0x00, 0x04, 0x00, 0x00, 0x00,
  0x13, 0x00, 0x00, 0x00, 0x6d, 0x69, 0x6e, 0x5f, 0x72, 0x75, 0x6e, 0x74,
  0x69, 0x6d, 0x65, 0x5f, 0x76, 0x65, 0x72, 0x73, 0x69, 0x6f, 0x6e, 0x00,
  0x0d, 0x00, 0x00, 0x00, 0x18, 0x06, 0x00, 0x00, 0x10, 0x06, 0x00, 0x00,
  0xfc, 0x05, 0x00, 0x00, 0xa4, 0x05, 0x00, 0x00, 0x54, 0x05, 0x00, 0x00,
  0x04, 0x05, 0x00, 0x00, 0xf4, 0x00, 0x00, 0x00, 0xa4, 0x00, 0x00, 0x00,
  0x9c, 0x00, 0x00, 0x00, 0x94, 0x00, 0x00, 0x00, 0x8c, 0x00, 0x00, 0x00,
  0x6c, 0x00, 0x00, 0x00, 0x04, 0x00, 0x00, 0x00, 0x36, 0xfa, 0xff, 0xff,
  0x04, 0x00, 0x00, 0x00, 0x58, 0x00, 0x00, 0x00, 0x0c, 0x00, 0x00, 0x00,
  0x08, 0x00, 0x0e, 0x00, 0x08, 0x00, 0x04, 0x00, 0x08, 0x00, 0x00, 0x00,
  0x10, 0x00, 0x00, 0x00, 0x28, 0x00, 0x00, 0x00, 0x00, 0x00, 0x06, 0x00,
  0x08, 0x00, 0x04, 0x00, 0x06, 0x00, 0x00, 0x00, 0x04, 0x00, 0x00, 0x00,
  0x01, 0x00, 0x00, 0x00, 0xea, 0x03, 0x00, 0x00, 0x00, 0x00, 0x0a, 0x00,
  0x10, 0x00, 0x0c, 0x00, 0x08, 0x00, 0x04, 0x00, 0x0a, 0x00, 0x00, 0x00,
  0x02, 0x00, 0x00, 0x00, 0x02, 0x00, 0x00, 0x00, 0x04, 0x00, 0x00, 0x00,
  0x06, 0x00, 0x00, 0x00, 0x32, 0x2e, 0x31, 0x35, 0x2e, 0x30, 0x00, 0x00,
  0x9a, 0xfa, 0xff, 0xff, 0x04, 0x00, 0x00, 0x00, 0x10, 0x00, 0x00, 0x00,
  0x31, 0x2e, 0x35, 0x2e, 0x30, 0x00, 0x00, 0x00, 0x00, 0x00, 0x00, 0x00,
  0x00, 0x00, 0x00, 0x00, 0xa8, 0xf5, 0xff, 0xff, 0xac, 0xf5, 0xff, 0xff,
  0xb0, 0xf5, 0xff, 0xff, 0xc2, 0xfa, 0xff, 0xff, 0x04, 0x00, 0x00, 0x00,
  0x40, 0x00, 0x00, 0x00, 0x9f, 0x74, 0x63, 0x3f, 0x82, 0xef, 0x65, 0xbf,
  0xf2, 0x43, 0x75, 0x3f, 0x18, 0x54, 0xc9, 0x3d, 0x77, 0x61, 0xa3, 0xbf,
  0x1f, 0x7d, 0x3f, 0xbe, 0x57, 0xda, 0x84, 0xbb, 0x68, 0x2c, 0x74, 0xbf,
  0xfc, 0xcf, 0xe9, 0x3e, 0x19, 0xfb, 0xe3, 0x3f, 0x9d, 0x76, 0x1c, 0x3f,
  0x75, 0x55, 0x84, 0x3e, 0x75, 0x6a, 0x02, 0xbf, 0x62, 0x47, 0x36, 0xbf,
  0x48, 0x65, 0x87, 0xbe, 0xb5, 0xfd, 0xb9, 0x3f, 0x0e, 0xfb, 0xff, 0xff,
  0x04, 0x00, 0x00, 0x00, 0x00, 0x04, 0x00, 0x00, 0x44, 0xcc, 0xa4, 0xbe,
  0xe1, 0xf9, 0x05, 0x3d, 0xa3, 0xfc, 0x9b, 0x3e, 0x65, 0x74, 0x68, 0xbe,
  0x9c, 0xda, 0xce, 0xbe, 0xa2, 0x62, 0xa1, 0xbe, 0x95, 0xae, 0xb5, 0x3e,
  0xeb, 0xf7, 0xba, 0x3a, 0x39, 0x59, 0x60, 0x3e, 0x73, 0x90, 0x4f, 0xbf,
  0xeb, 0xa1, 0x78, 0xbe, 0x5d, 0x79, 0xc6, 0x3d, 0x13, 0xea, 0xb4, 0x3e,
  0x5f, 0xe2, 0x8f, 0x3e, 0x36, 0x17, 0x54, 0x3e, 0xd1, 0x04, 0x94, 0x3e,
  0xb4, 0x04, 0xd0, 0x3d, 0x99, 0x2f, 0xbf, 0xbd, 0x26, 0xe1, 0x1b, 0x3e,
  0x0d, 0x18, 0xb7, 0x3e, 0x4c, 0x1d, 0xe2, 0xbd, 0x23, 0x5b, 0xb3, 0xbe,
  0x14, 0x68, 0x00, 0xbe, 0x5b, 0x72, 0x87, 0xbe, 0x78, 0x28, 0xba, 0x3e,
  0x3b, 0xee, 0x8f, 0xbe, 0x8c, 0xeb, 0xc9, 0xbd, 0xa2, 0x9e, 0x96, 0xbe,
  0xb5, 0xb3, 0x88, 0xbe, 0x78, 0xae, 0x0f, 0xbd, 0x20, 0x11, 0x97, 0xbd,
  0x80, 0x7b, 0x33, 0x3f, 0x5c, 0xdc, 0xe2, 0x3d, 0x71, 0x94, 0xa0, 0xbe,
  0x50, 0xf5, 0x22, 0x3d, 0x65, 0x40, 0x96, 0xbc, 0x36, 0x7e, 0x24, 0x3e,
  0x76, 0x67, 0x0e, 0x3f, 0x14, 0x85, 0x1f, 0xbe, 0xc0, 0x3c, 0x67, 0xbe,
  0xb3, 0xfc, 0x61, 0x3d, 0x14, 0xcd, 0x82, 0xbd, 0xc9, 0x6d, 0xae, 0x3e,
  0xa7, 0x4e, 0xb4, 0x3e, 0x73, 0x68, 0xbf, 0x3e, 0x55, 0x72, 0xae, 0xbe,
  0x62, 0x15, 0xbb, 0xbe, 0x8c, 0x8b, 0xc2, 0x3d, 0x4d, 0xda, 0x8d, 0x3e,
  0x44, 0xf1, 0xc2, 0xbe, 0xd9, 0x64, 0xbd, 0x3e, 0x3e, 0x0d, 0xad, 0xbe,
  0x81, 0x32, 0x8a, 0xbe, 0x71, 0xc9, 0xc4, 0xbe, 0xe1, 0xfc, 0x8f, 0x3e,
  0x22, 0xd7, 0x42, 0x3e, 0xca, 0x61, 0x79, 0x3e, 0x5e, 0x47, 0xb6, 0xbe,
  0xd7, 0xb1, 0xce, 0xbe, 0xc5, 0x2a, 0x90, 0x3e, 0x48, 0x47, 0x13, 0xbd,
  0x50, 0xa4, 0xd4, 0xbe, 0x5a, 0x9d, 0x2f, 0xbe, 0x40, 0x2d, 0xf5, 0xbb,
  0xd0, 0xd0, 0x6d, 0xbd, 0x20, 0x64, 0x32, 0xbe, 0xe7, 0xda, 0x96, 0x3e,
  0xf0, 0x8f, 0x07, 0xbe, 0x54, 0x6e, 0xbc, 0x3d, 0xfb, 0x21, 0x8a, 0xbe,
  0x6c, 0x96, 0xca, 0x3d, 0x4e, 0xdb, 0xfb, 0xbe, 0x96, 0x6f, 0x19, 0x3e,
  0x6b, 0xa6, 0x61, 0x3e, 0x96, 0x04, 0x18, 0xbe, 0x7a, 0x1b, 0x2b, 0xbf,
  0x50, 0x82, 0xbd, 0x3c, 0x58, 0xa0, 0x37, 0xbe, 0xdd, 0x14, 0x61, 0xbe,
  0x33, 0x8f, 0x31, 0x3f, 0x8d, 0x93, 0xdc, 0x3e, 0x12, 0xbd, 0x43, 0xbe,
  0x46, 0x35, 0x27, 0x3e, 0x11, 0xf5, 0xcf, 0xbe, 0x7c, 0x62, 0xda, 0xbe,
  0xbd, 0x1b, 0x8c, 0xbe, 0xa0, 0xf7, 0x3d, 0xbc, 0xd1, 0xd6, 0x93, 0x3e,
  0x34, 0xfb, 0x6f, 0x3d, 0x16, 0x9c, 0xca, 0x3d, 0x26, 0x0d, 0x6c, 0x3e,
  0xbd, 0x53, 0xbd, 0x3e, 0x93, 0x50, 0xd3, 0x3e, 0x4f, 0xb7, 0xd9, 0xbe,
  0x00, 0xa2, 0x90, 0xbb, 0x93, 0x1c, 0xd9, 0xbd, 0x60, 0x87, 0x05, 0x3c,
  0xb5, 0xa8, 0x9f, 0xbe, 0x1c, 0x89, 0xf3, 0x3d, 0xe6, 0xe4, 0xfb, 0x3d,
  0xce, 0x72, 0x02, 0x3e, 0xf0, 0xfc, 0x3c, 0x3e, 0x8a, 0xa9, 0x63, 0x3e,
  0x2c, 0xbd, 0xcd, 0xbd, 0xa8, 0xc5, 0x10, 0x3d, 0x96, 0xd9, 0xba, 0x3d,
  0xf7, 0xa2, 0xbe, 0xbe, 0x05, 0xef, 0xb4, 0xbd, 0x45, 0x68, 0xba, 0x3e,
  0x2a, 0xa7, 0x00, 0xbe, 0x78, 0x84, 0xd3, 0xbe, 0x0a, 0x48, 0xc2, 0x3e,
  0xb4, 0x9d, 0xe9, 0x3d, 0x4f, 0xdd, 0x92, 0xbd, 0xba, 0xbd, 0xb5, 0xbe,
  0x37, 0x67, 0x90, 0x3e, 0x3f, 0x6f, 0xac, 0x3e, 0xc5, 0xf9, 0x0a, 0xbe,
  0x0b, 0x51, 0x9e, 0x3e, 0x55, 0x99, 0xbd, 0xbe, 0x7b, 0x9e, 0x83, 0xbe,
  0xec, 0xe3, 0xab, 0xbe, 0x9c, 0x60, 0xc7, 0x3d, 0x15, 0x19, 0x70, 0xbe,
  0x76, 0x52, 0x26, 0xbe, 0x54, 0x4a, 0x2b, 0xbe, 0x19, 0x0e, 0xd2, 0x3e,
  0x41, 0xbc, 0x72, 0x3e, 0xb8, 0xc5, 0x63, 0x3d, 0x2d, 0x8d, 0xbc, 0xbe,
  0xd0, 0x25, 0x95, 0xbd, 0xd3, 0xc4, 0xb7, 0x3e, 0xfe, 0xc4, 0x5e, 0x3e,
  0x15, 0xae, 0x57, 0x3e, 0x54, 0x3f, 0x4d, 0xbe, 0x02, 0x24, 0x14, 0xbe,
  0x81, 0x39, 0x91, 0x3d, 0x66, 0x7e, 0x13, 0x3e, 0x3d, 0x98, 0xb1, 0x3e,
  0x6a, 0x2c, 0xb6, 0x3e, 0xc2, 0xb0, 0x80, 0xbe, 0x26, 0xa5, 0x81, 0xbe,
  0x7b, 0xe5, 0xdb, 0x3e, 0xdb, 0x96, 0x81, 0x3e, 0x84, 0x6c, 0xb9, 0x3d,
  0xb9, 0x94, 0x6e, 0xbe, 0x5e, 0x8f, 0x52, 0xbe, 0xd4, 0xa9, 0xd3, 0xbc,
  0xe0, 0x8a, 0x35, 0xbc, 0x40, 0x51, 0xfb, 0x3e, 0x36, 0x59, 0x6d, 0x3e,
  0x98, 0xe2, 0x50, 0xbe, 0x80, 0x97, 0x9d, 0x3e, 0xbc, 0xa6, 0x3b, 0x3e,
  0x1a, 0x3a, 0xa5, 0xbe, 0x06, 0xdc, 0x97, 0xbd, 0xcc, 0xe9, 0xf7, 0x3d,
  0x44, 0xdc, 0xc9, 0x3d, 0xf3, 0x84, 0x89, 0x3e, 0xaa, 0x5c, 0x0e, 0x3e,
  0x9c, 0xab, 0x57, 0xbe, 0x4d, 0x98, 0xc3, 0x3e, 0xb0, 0x4a, 0x67, 0xbd,
  0xe5, 0x41, 0x0b, 0x3d, 0xe7, 0x7b, 0xd6, 0x3e, 0x16, 0xef, 0xe8, 0xbe,
  0x4f, 0x7b, 0xaf, 0x3e, 0x19, 0x32, 0x20, 0x3e, 0x9c, 0x2e, 0xbe, 0xbd,
  0xc8, 0x58, 0x81, 0xbe, 0xc4, 0xcf, 0xb3, 0xbe, 0xfb, 0x27, 0x08, 0xbe,
  0x36, 0xb7, 0x58, 0xbe, 0xec, 0x8e, 0x2d, 0xbe, 0xb6, 0x82, 0x4d, 0x3e,
  0xcd, 0xc9, 0x87, 0x3e, 0x96, 0xb4, 0x90, 0xbe, 0x62, 0xb3, 0xaf, 0xbe,
  0x3d, 0x98, 0xdb, 0x3e, 0x23, 0x55, 0x96, 0x3e, 0x60, 0xd6, 0x2e, 0xbc,
  0xe2, 0x28, 0xc3, 0xbe, 0xcd, 0x5d, 0xb8, 0xbe, 0x8c, 0xe6, 0x8b, 0xbe,
  0x60, 0xf9, 0xe4, 0x3c, 0x3a, 0x2a, 0x2f, 0x3e, 0x9f, 0x33, 0x3f, 0xbe,
  0x90, 0x73, 0x53, 0x3d, 0x39, 0x19, 0xab, 0x3e, 0xcd, 0x03, 0x9b, 0xbe,
  0xec, 0xdf, 0x8e, 0xbe, 0xca, 0xef, 0x7e, 0x3e, 0x94, 0xa0, 0x9b, 0xbd,
  0x04, 0xea, 0x58, 0xbd, 0x40, 0x04, 0xc7, 0xbb, 0x99, 0x59, 0xf4, 0xbe,
  0x59, 0xe2, 0xda, 0x3e, 0xe7, 0x3a, 0xc2, 0xbc, 0x04, 0x33, 0x67, 0xbe,
  0xcb, 0x1a, 0xbd, 0x3e, 0x40, 0xb1, 0xdf, 0xbe, 0xd8, 0xa0, 0x09, 0x3e,
  0xa4, 0x1f, 0xc6, 0xbd, 0xda, 0xfd, 0x95, 0x3e, 0x31, 0x29, 0x4d, 0xbe,
  0x06, 0x38, 0x8c, 0xbe, 0x98, 0x18, 0x39, 0x3d, 0x86, 0xc1, 0x89, 0xbe,
  0x91, 0x5a, 0xa8, 0xbe, 0x8c, 0xa4, 0x4b, 0x3d, 0xaa, 0x5b, 0x91, 0xbe,
  0xbc, 0x5c, 0x14, 0xbf, 0xa8, 0x7f, 0x4b, 0x3d, 0x04, 0x9c, 0xba, 0xbe,
  0x2f, 0xb7, 0xcb, 0x3e, 0xe3, 0xe3, 0x56, 0x3c, 0xeb, 0xe4, 0x61, 0x3e,
  0x3b, 0x07, 0xf4, 0x3b, 0x76, 0xd8, 0x52, 0x3e, 0x2d, 0x7b, 0xdf, 0x3e,
  0x8c, 0x67, 0xcd, 0xbd, 0x73, 0xdb, 0x88, 0xbe, 0x80, 0x33, 0xda, 0xbb,
  0xd4, 0xdd, 0x62, 0xbd, 0x99, 0xde, 0x7e, 0xbe, 0xe0, 0xee, 0x3a, 0xbc,
  0x55, 0x97, 0xb9, 0x3e, 0xd5, 0xf1, 0xb9, 0x3e, 0x18, 0x92, 0x65, 0x3d,
  0x3e, 0xce, 0x80, 0xbe, 0xda, 0xbe, 0x2f, 0x3e, 0xab, 0x27, 0x68, 0xbe,
  0x7d, 0xfa, 0x85, 0xbe, 0x3b, 0xda, 0x90, 0x3e, 0x12, 0x58, 0x3d, 0x3e,
  0x3e, 0xc5, 0xc3, 0xbe, 0x3c, 0xa9, 0x9b, 0xbd, 0x6b, 0x47, 0xcc, 0x3e,
  0xcf, 0x4d, 0xa4, 0x3e, 0x6c, 0x01, 0xab, 0xbd, 0x3d, 0x64, 0x95, 0x3e,
  0x8e, 0xef, 0xd3, 0x3e, 0xcd, 0x5f, 0xd1, 0xbe, 0xa1, 0x99, 0x9a, 0xbf,
  0x35, 0x58, 0x8b, 0x3e, 0x78, 0x41, 0x26, 0xbf, 0xba, 0x3d, 0x58, 0x3e,
  0xd0, 0xa5, 0xba, 0xbe, 0x5c, 0x4c, 0x50, 0xbf, 0x71, 0x70, 0x4e, 0xbe,
  0x60, 0x7a, 0xcd, 0x3c, 0x56, 0x2f, 0x28, 0x3e, 0x94, 0x2a, 0xb5, 0xbd,
  0x28, 0x2a, 0x58, 0xbe, 0xaa, 0x04, 0x38, 0x3e, 0xfc, 0x45, 0x1b, 0x3f,
  0x1a, 0xff, 0xff, 0xff, 0x04, 0x00, 0x00, 0x00, 0x40, 0x00, 0x00, 0x00,
  0x00, 0x80, 0x2a, 0xbd, 0xba, 0x7e, 0xab, 0x3e, 0xd9, 0x38, 0xcd, 0xbe,
  0x90, 0xed, 0x16, 0x3e, 0x00, 0x5f, 0x89, 0xbd, 0xf0, 0x99, 0x10, 0x3f,
  0xfb, 0xce, 0xd9, 0xbe, 0x7d, 0x02, 0x8f, 0x3e, 0xcd, 0xaf, 0x48, 0x3e,
  0x6b, 0x6e, 0xbc, 0x3e, 0x19, 0x72, 0x00, 0xbf, 0xaa, 0x6d, 0xe1, 0x3e,
  0x80, 0x9d, 0xc0, 0xbe, 0x60, 0xd7, 0x95, 0xbc, 0x10, 0x99, 0xb6, 0xbe,
  0x1c, 0x99, 0x0b, 0x3e, 0x66, 0xff, 0xff, 0xff, 0x04, 0x00, 0x00, 0x00,
  0x40, 0x00, 0x00, 0x00, 0x00, 0x00, 0x00, 0x00, 0xaf, 0x0e, 0x45, 0x3f,
  0x00, 0x00, 0x00, 0x00, 0x61, 0x91, 0xd3, 0xbe, 0x00, 0x00, 0x00, 0x00,
  0xcc, 0x6c, 0x9c, 0xbf, 0x00, 0x00, 0x00, 0x00, 0x7b, 0xd3, 0x87, 0x3d,
  0xfe, 0xd7, 0x9b, 0xbe, 0xc2, 0x09, 0x52, 0xbe, 0x00, 0x00, 0x00, 0x00,
  0xea, 0x7f, 0x3e, 0x3e, 0x00, 0x00, 0x00, 0x00, 0x00, 0x00, 0x00, 0x00,
  0x00, 0x00, 0x00, 0x00, 0xc7, 0x3a, 0xa6, 0x3d, 0xb2, 0xff, 0xff, 0xff,
  0x04, 0x00, 0x00, 0x00, 0x40, 0x00, 0x00, 0x00, 0x07, 0x30, 0x94, 0xbd,
  0xd5, 0xb1, 0xf3, 0x3e, 0x48, 0xe1, 0xae, 0xbe, 0x00, 0x00, 0x00, 0x00,
  0x8d, 0x1c, 0x10, 0x3f, 0x0b, 0xc3, 0x70, 0x3e, 0x52, 0x1c, 0xa8, 0x3e,
  0x4f, 0x84, 0xf0, 0x3e, 0x73, 0x85, 0x9b, 0xbe, 0xc6, 0x82, 0xec, 0xbe,
  0x3f, 0xff, 0x23, 0xbe, 0x78, 0xcf, 0x18, 0xbc, 0x2b, 0xe2, 0x5e, 0x3e,
  0x1b, 0x39, 0x7d, 0x3e, 0x00, 0x00, 0x00, 0x00, 0xfa, 0xcb, 0x4e, 0x3f,
  0x00, 0x00, 0x06, 0x00, 0x08, 0x00, 0x04, 0x00, 0x06, 0x00, 0x00, 0x00,
  0x04, 0x00, 0x00, 0x00, 0x04, 0x00, 0x00, 0x00, 0xf8, 0xc9, 0x8a, 0xbe,
  0x08, 0xfb, 0xff, 0xff, 0x0c, 0xfb, 0xff, 0xff, 0x0f, 0x00, 0x00, 0x00,
  0x4d, 0x4c, 0x49, 0x52, 0x20, 0x43, 0x6f, 0x6e, 0x76, 0x65, 0x72, 0x74,
  0x65, 0x64, 0x2e, 0x00, 0x01, 0x00, 0x00, 0x00, 0x14, 0x00, 0x00, 0x00,
  0x00, 0x00, 0x0e, 0x00, 0x18, 0x00, 0x14, 0x00, 0x10, 0x00, 0x0c, 0x00,
  0x08, 0x00, 0x04, 0x00, 0x0e, 0x00, 0x00, 0x00, 0x14, 0x00, 0x00, 0x00,
  0x1c, 0x00, 0x00, 0x00, 0xd8, 0x00, 0x00, 0x00, 0xdc, 0x00, 0x00, 0x00,
  0xe0, 0x00, 0x00, 0x00, 0x04, 0x00, 0x00, 0x00, 0x6d, 0x61, 0x69, 0x6e,
  0x00, 0x00, 0x00, 0x00, 0x03, 0x00, 0x00, 0x00, 0x80, 0x00, 0x00, 0x00,
  0x38, 0x00, 0x00, 0x00, 0x04, 0x00, 0x00, 0x00, 0x9a, 0xff, 0xff, 0xff,
  0x10, 0x00, 0x00, 0x00, 0x00, 0x00, 0x00, 0x08, 0x0c, 0x00, 0x00, 0x00,
  0x10, 0x00, 0x00, 0x00, 0x84, 0xfb, 0xff, 0xff, 0x01, 0x00, 0x00, 0x00,
  0x09, 0x00, 0x00, 0x00, 0x03, 0x00, 0x00, 0x00, 0x08, 0x00, 0x00, 0x00,
  0x06, 0x00, 0x00, 0x00, 0x01, 0x00, 0x00, 0x00, 0xca, 0xff, 0xff, 0xff,
  0x10, 0x00, 0x00, 0x00, 0x00, 0x00, 0x00, 0x08, 0x10, 0x00, 0x00, 0x00,
  0x14, 0x00, 0x00, 0x00, 0xba, 0xff, 0xff, 0xff, 0x00, 0x00, 0x00, 0x01,
  0x01, 0x00, 0x00, 0x00, 0x08, 0x00, 0x00, 0x00, 0x03, 0x00, 0x00, 0x00,
  0x07, 0x00, 0x00, 0x00, 0x05, 0x00, 0x00, 0x00, 0x02, 0x00, 0x00, 0x00,
  0x00, 0x00, 0x0e, 0x00, 0x16, 0x00, 0x00, 0x00, 0x10, 0x00, 0x0c, 0x00,
  0x0b, 0x00, 0x04, 0x00, 0x0e, 0x00, 0x00, 0x00, 0x18, 0x00, 0x00, 0x00,
  0x00, 0x00, 0x00, 0x08, 0x18, 0x00, 0x00, 0x00, 0x1c, 0x00, 0x00, 0x00,
  0x00, 0x00, 0x06, 0x00, 0x08, 0x00, 0x07, 0x00, 0x06, 0x00, 0x00, 0x00,
  0x00, 0x00, 0x00, 0x01, 0x01, 0x00, 0x00, 0x00, 0x07, 0x00, 0x00, 0x00,
  0x03, 0x00, 0x00, 0x00, 0x00, 0x00, 0x00, 0x00, 0x04, 0x00, 0x00, 0x00,
  0x03, 0x00, 0x00, 0x00, 0x01, 0x00, 0x00, 0x00, 0x09, 0x00, 0x00, 0x00,
  0x01, 0x00, 0x00, 0x00, 0x00, 0x00, 0x00, 0x00, 0x0a, 0x00, 0x00, 0x00,
  0xa4, 0x03, 0x00, 0x00, 0x34, 0x03, 0x00, 0x00, 0xc4, 0x02, 0x00, 0x00,
  0x6c, 0x02, 0x00, 0x00, 0x20, 0x02, 0x00, 0x00, 0xd4, 0x01, 0x00, 0x00,
  0x88, 0x01, 0x00, 0x00, 0xf4, 0x00, 0x00, 0x00, 0x60, 0x00, 0x00, 0x00,
  0x04, 0x00, 0x00, 0x00, 0x9a, 0xfc, 0xff, 0xff, 0x00, 0x00, 0x00, 0x01,
  0x14, 0x00, 0x00, 0x00, 0x1c, 0x00, 0x00, 0x00, 0x1c, 0x00, 0x00, 0x00,
  0x0a, 0x00, 0x00, 0x00, 0x34, 0x00, 0x00, 0x00, 0x02, 0x00, 0x00, 0x00,
  0xff, 0xff, 0xff, 0xff, 0x01, 0x00, 0x00, 0x00, 0x84, 0xfc, 0xff, 0xff,
  0x19, 0x00, 0x00, 0x00, 0x53, 0x74, 0x61, 0x74, 0x65, 0x66, 0x75, 0x6c,
  0x50, 0x61, 0x72, 0x74, 0x69, 0x74, 0x69, 0x6f, 0x6e, 0x65, 0x64, 0x43,
  0x61, 0x6c, 0x6c, 0x3a, 0x30, 0x00, 0x00, 0x00, 0x02, 0x00, 0x00, 0x00,
  0x01, 0x00, 0x00, 0x00, 0x01, 0x00, 0x00, 0x00, 0xf2, 0xfc, 0xff, 0xff,
  0x00, 0x00, 0x00, 0x01, 0x14, 0x00, 0x00, 0x00, 0x1c, 0x00, 0x00, 0x00,
  0x1c, 0x00, 0x00, 0x00, 0x09, 0x00, 0x00, 0x00, 0x6c, 0x00, 0x00, 0x00,
  0x02, 0x00, 0x00, 0x00, 0xff, 0xff, 0xff, 0xff, 0x10, 0x00, 0x00, 0x00,
  0xdc, 0xfc, 0xff, 0xff, 0x52, 0x00, 0x00, 0x00, 0x73, 0x65, 0x71, 0x75,
  0x65, 0x6e, 0x74, 0x69, 0x61, 0x6c, 0x5f, 0x31, 0x2f, 0x64, 0x65, 0x6e,
  0x73, 0x65, 0x5f, 0x34, 0x2f, 0x4d, 0x61, 0x74, 0x4d, 0x75, 0x6c, 0x3b,
  0x73, 0x65, 0x71, 0x75, 0x65, 0x6e, 0x74, 0x69, 0x61, 0x6c, 0x5f, 0x31,
  0x2f, 0x64, 0x65, 0x6e, 0x73, 0x65, 0x5f, 0x34, 0x2f, 0x52, 0x65, 0x6c,
  0x75, 0x3b, 0x73, 0x65, 0x71, 0x75, 0x65, 0x6e, 0x74, 0x69, 0x61, 0x6c,
  0x5f, 0x31, 0x2f, 0x64, 0x65, 0x6e, 0x73, 0x65, 0x5f, 0x34, 0x2f, 0x42,
  0x69, 0x61, 0x73, 0x41, 0x64, 0x64, 0x00, 0x00, 0x02, 0x00, 0x00, 0x00,
  0x01, 0x00, 0x00, 0x00, 0x10, 0x00, 0x00, 0x00, 0x82, 0xfd, 0xff, 0xff,
  0x00, 0x00, 0x00, 0x01, 0x14, 0x00, 0x00, 0x00, 0x1c, 0x00, 0x00, 0x00,
  0x1c, 0x00, 0x00, 0x00, 0x08, 0x00, 0x00, 0x00, 0x6c, 0x00, 0x00, 0x00,
  0x02, 0x00, 0x00, 0x00, 0xff, 0xff, 0xff, 0xff, 0x10, 0x00, 0x00, 0x00,
  0x6c, 0xfd, 0xff, 0xff, 0x52, 0x00, 0x00, 0x00, 0x73, 0x65, 0x71, 0x75,
  0x65, 0x6e, 0x74, 0x69, 0x61, 0x6c, 0x5f, 0x31, 0x2f, 0x64, 0x65, 0x6e,
  0x73, 0x65, 0x5f, 0x33, 0x2f, 0x4d, 0x61, 0x74, 0x4d, 0x75, 0x6c, 0x3b,
  0x73, 0x65, 0x71, 0x75, 0x65, 0x6e, 0x74, 0x69, 0x61, 0x6c, 0x5f, 0x31,
  0x2f, 0x64, 0x65, 0x6e, 0x73, 0x65, 0x5f, 0x33, 0x2f, 0x52, 0x65, 0x6c,
  0x75, 0x3b, 0x73, 0x65, 0x71, 0x75, 0x65, 0x6e, 0x74, 0x69, 0x61, 0x6c,
  0x5f, 0x31, 0x2f, 0x64, 0x65, 0x6e, 0x73, 0x65, 0x5f, 0x33, 0x2f, 0x42,
  0x69, 0x61, 0x73, 0x41, 0x64, 0x64, 0x00, 0x00, 0x02, 0x00, 0x00, 0x00,
  0x01, 0x00, 0x00, 0x00, 0x10, 0x00, 0x00, 0x00, 0x7e, 0xfe, 0xff, 0xff,
  0x00, 0x00, 0x00, 0x01, 0x10, 0x00, 0x00, 0x00, 0x10, 0x00, 0x00, 0x00,
  0x07, 0x00, 0x00, 0x00, 0x28, 0x00, 0x00, 0x00, 0xec, 0xfd, 0xff, 0xff,
  0x1b, 0x00, 0x00, 0x00, 0x73, 0x65, 0x71, 0x75, 0x65, 0x6e, 0x74, 0x69,
  0x61, 0x6c, 0x5f, 0x31, 0x2f, 0x64, 0x65, 0x6e, 0x73, 0x65, 0x5f, 0x35,
  0x2f, 0x4d, 0x61, 0x74, 0x4d, 0x75, 0x6c, 0x00, 0x02, 0x00, 0x00, 0x00,
  0x01, 0x00, 0x00, 0x00, 0x10, 0x00, 0x00, 0x00, 0xc6, 0xfe, 0xff, 0xff,
  0x00, 0x00, 0x00, 0x01, 0x10, 0x00, 0x00, 0x00, 0x10, 0x00, 0x00, 0x00,
  0x06, 0x00, 0x00, 0x00, 0x28, 0x00, 0x00, 0x00, 0x34, 0xfe, 0xff, 0xff,
  0x1b, 0x00, 0x00, 0x00, 0x73, 0x65, 0x71, 0x75, 0x65, 0x6e, 0x74, 0x69,
  0x61, 0x6c, 0x5f, 0x31, 0x2f, 0x64, 0x65, 0x6e, 0x73, 0x65, 0x5f, 0x34,
  0x2f, 0x4d, 0x61, 0x74, 0x4d, 0x75, 0x6c, 0x00, 0x02, 0x00, 0x00, 0x00,
  0x10, 0x00, 0x00, 0x00, 0x10, 0x00, 0x00, 0x00, 0x0e, 0xff, 0xff, 0xff,
  0x00, 0x00, 0x00, 0x01, 0x10, 0x00, 0x00, 0x00, 0x10, 0x00, 0x00, 0x00,
  0x05, 0x00, 0x00, 0x00, 0x28, 0x00, 0x00, 0x00, 0x7c, 0xfe, 0xff, 0xff,
  0x1b, 0x00, 0x00, 0x00, 0x73, 0x65, 0x71, 0x75, 0x65, 0x6e, 0x74, 0x69,
  0x61, 0x6c, 0x5f, 0x31, 0x2f, 0x64, 0x65, 0x6e, 0x73, 0x65, 0x5f, 0x33,
  0x2f, 0x4d, 0x61, 0x74, 0x4d, 0x75, 0x6c, 0x00, 0x02, 0x00, 0x00, 0x00,
  0x10, 0x00, 0x00, 0x00, 0x01, 0x00, 0x00, 0x00, 0x56, 0xff, 0xff, 0xff,
  0x00, 0x00, 0x00, 0x01, 0x10, 0x00, 0x00, 0x00, 0x10, 0x00, 0x00, 0x00,
  0x04, 0x00, 0x00, 0x00, 0x38, 0x00, 0x00, 0x00, 0xc4, 0xfe, 0xff, 0xff,
  0x2b, 0x00, 0x00, 0x00, 0x73, 0x65, 0x71, 0x75, 0x65, 0x6e, 0x74, 0x69,
  0x61, 0x6c, 0x5f, 0x31, 0x2f, 0x64, 0x65, 0x6e, 0x73, 0x65, 0x5f, 0x33,
  0x2f, 0x42, 0x69, 0x61, 0x73, 0x41, 0x64, 0x64, 0x2f, 0x52, 0x65, 0x61,
  0x64, 0x56, 0x61, 0x72, 0x69, 0x61, 0x62, 0x6c, 0x65, 0x4f, 0x70, 0x00,
  0x01, 0x00, 0x00, 0x00, 0x10, 0x00, 0x00, 0x00, 0xaa, 0xff, 0xff, 0xff,
  0x00, 0x00, 0x00, 0x01, 0x10, 0x00, 0x00, 0x00, 0x10, 0x00, 0x00, 0x00,
  0x03, 0x00, 0x00, 0x00, 0x38, 0x00, 0x00, 0x00, 0x18, 0xff, 0xff, 0xff,
  0x2b, 0x00, 0x00, 0x00, 0x73, 0x65, 0x71, 0x75, 0x65, 0x6e, 0x74, 0x69,
  0x61, 0x6c, 0x5f, 0x31, 0x2f, 0x64, 0x65, 0x6e, 0x73, 0x65, 0x5f, 0x34,
  0x2f, 0x42, 0x69, 0x61, 0x73, 0x41, 0x64, 0x64, 0x2f, 0x52, 0x65, 0x61,
  0x64, 0x56, 0x61, 0x72, 0x69, 0x61, 0x62, 0x6c, 0x65, 0x4f, 0x70, 0x00,
  0x01, 0x00, 0x00, 0x00, 0x10, 0x00, 0x00, 0x00, 0x00, 0x00, 0x16, 0x00,
  0x18, 0x00, 0x14, 0x00, 0x00, 0x00, 0x10, 0x00, 0x0c, 0x00, 0x08, 0x00,
  0x00, 0x00, 0x00, 0x00, 0x00, 0x00, 0x07, 0x00, 0x16, 0x00, 0x00, 0x00,
  0x00, 0x00, 0x00, 0x01, 0x10, 0x00, 0x00, 0x00, 0x10, 0x00, 0x00, 0x00,
  0x02, 0x00, 0x00, 0x00, 0x38, 0x00, 0x00, 0x00, 0x84, 0xff, 0xff, 0xff,
  0x2b, 0x00, 0x00, 0x00, 0x73, 0x65, 0x71, 0x75, 0x65, 0x6e, 0x74, 0x69,
  0x61, 0x6c, 0x5f, 0x31, 0x2f, 0x64, 0x65, 0x6e, 0x73, 0x65, 0x5f, 0x35,
  0x2f, 0x42, 0x69, 0x61, 0x73, 0x41, 0x64, 0x64, 0x2f, 0x52, 0x65, 0x61,
  0x64, 0x56, 0x61, 0x72, 0x69, 0x61, 0x62, 0x6c, 0x65, 0x4f, 0x70, 0x00,
  0x01, 0x00, 0x00, 0x00, 0x01, 0x00, 0x00, 0x00, 0x00, 0x00, 0x16, 0x00,
  0x1c, 0x00, 0x18, 0x00, 0x00, 0x00, 0x14, 0x00, 0x10, 0x00, 0x0c, 0x00,
  0x00, 0x00, 0x00, 0x00, 0x08, 0x00, 0x07, 0x00, 0x16, 0x00, 0x00, 0x00,
  0x00, 0x00, 0x00, 0x01, 0x14, 0x00, 0x00, 0x00, 0x20, 0x00, 0x00, 0x00,
  0x20, 0x00, 0x00, 0x00, 0x01, 0x00, 0x00, 0x00, 0x3c, 0x00, 0x00, 0x00,
  0x02, 0x00, 0x00, 0x00, 0xff, 0xff, 0xff, 0xff, 0x01, 0x00, 0x00, 0x00,
  0x04, 0x00, 0x04, 0x00, 0x04, 0x00, 0x00, 0x00, 0x1f, 0x00, 0x00, 0x00,
  0x73, 0x65, 0x72, 0x76, 0x69, 0x6e, 0x67, 0x5f, 0x64, 0x65, 0x66, 0x61,
  0x75, 0x6c, 0x74, 0x5f, 0x64, 0x65, 0x6e, 0x73, 0x65, 0x5f, 0x33, 0x5f,
  0x69, 0x6e, 0x70, 0x75, 0x74, 0x3a, 0x30, 0x00, 0x02, 0x00, 0x00, 0x00,
  0x01, 0x00, 0x00, 0x00, 0x01, 0x00, 0x00, 0x00, 0x01, 0x00, 0x00, 0x00,
  0x10, 0x00, 0x00, 0x00, 0x0c, 0x00, 0x0c, 0x00, 0x0b, 0x00, 0x00, 0x00,
  0x00, 0x00, 0x04, 0x00, 0x0c, 0x00, 0x00, 0x00, 0x09, 0x00, 0x00, 0x00,
  0x00, 0x00, 0x00, 0x09
};

#endif //SINE_WAVE_GENERATOR_H