#ifndef SINE_WAVE_H
#define SINE_WAVE_H


unsigned int sine_wave_len = 3168;
unsigned char sine_wave[] = {
 0x1c, 0x00, 0x00, 0x00, 0x54, 0x46, 0x4c, 0x33, 0x14, 0x00, 0x20, 0x00,
  0x1c, 0x00, 0x18, 0x00, 0x14, 0x00, 0x10, 0x00, 0x0c, 0x00, 0x00, 0x00,
  0x08, 0x00, 0x04, 0x00, 0x14, 0x00, 0x00, 0x00, 0x1c, 0x00, 0x00, 0x00,
  0x90, 0x00, 0x00, 0x00, 0xe8, 0x00, 0x00, 0x00, 0x04, 0x07, 0x00, 0x00,
  0x14, 0x07, 0x00, 0x00, 0x0c, 0x0c, 0x00, 0x00, 0x03, 0x00, 0x00, 0x00,
  0x01, 0x00, 0x00, 0x00, 0x10, 0x00, 0x00, 0x00, 0x00, 0x00, 0x0a, 0x00,
  0x10, 0x00, 0x0c, 0x00, 0x08, 0x00, 0x04, 0x00, 0x0a, 0x00, 0x00, 0x00,
  0x0c, 0x00, 0x00, 0x00, 0x1c, 0x00, 0x00, 0x00, 0x38, 0x00, 0x00, 0x00,
  0x0f, 0x00, 0x00, 0x00, 0x73, 0x65, 0x72, 0x76, 0x69, 0x6e, 0x67, 0x5f,
  0x64, 0x65, 0x66, 0x61, 0x75, 0x6c, 0x74, 0x00, 0x01, 0x00, 0x00, 0x00,
  0x04, 0x00, 0x00, 0x00, 0x98, 0xff, 0xff, 0xff, 0x09, 0x00, 0x00, 0x00,
  0x04, 0x00, 0x00, 0x00, 0x07, 0x00, 0x00, 0x00, 0x64, 0x65, 0x6e, 0x73,
  0x65, 0x5f, 0x32, 0x00, 0x01, 0x00, 0x00, 0x00, 0x04, 0x00, 0x00, 0x00,
  0xc6, 0xf9, 0xff, 0xff, 0x04, 0x00, 0x00, 0x00, 0x0b, 0x00, 0x00, 0x00,
  0x64, 0x65, 0x6e, 0x73, 0x65, 0x5f, 0x69, 0x6e, 0x70, 0x75, 0x74, 0x00,
  0x02, 0x00, 0x00, 0x00, 0x34, 0x00, 0x00, 0x00, 0x04, 0x00, 0x00, 0x00,
  0xdc, 0xff, 0xff, 0xff, 0x0c, 0x00, 0x00, 0x00, 0x04, 0x00, 0x00, 0x00,
  0x13, 0x00, 0x00, 0x00, 0x43, 0x4f, 0x4e, 0x56, 0x45, 0x52, 0x53, 0x49,
  0x4f, 0x4e, 0x5f, 0x4d, 0x45, 0x54, 0x41, 0x44, 0x41, 0x54, 0x41, 0x00,
  0x08, 0x00, 0x0c, 0x00, 0x08, 0x00, 0x04, 0x00, 0x08, 0x00, 0x00, 0x00,
  0x0b, 0x00, 0x00, 0x00, 0x04, 0x00, 0x00, 0x00, 0x13, 0x00, 0x00, 0x00,
  0x6d, 0x69, 0x6e, 0x5f, 0x72, 0x75, 0x6e, 0x74, 0x69, 0x6d, 0x65, 0x5f,
  0x76, 0x65, 0x72, 0x73, 0x69, 0x6f, 0x6e, 0x00, 0x0d, 0x00, 0x00, 0x00,
  0x18, 0x06, 0x00, 0x00, 0x10, 0x06, 0x00, 0x00, 0xc0, 0x05, 0x00, 0x00,
  0xa4, 0x05, 0x00, 0x00, 0x54, 0x05, 0x00, 0x00, 0x04, 0x05, 0x00, 0x00,
  0xf4, 0x00, 0x00, 0x00, 0xa4, 0x00, 0x00, 0x00, 0x9c, 0x00, 0x00, 0x00,
  0x94, 0x00, 0x00, 0x00, 0x8c, 0x00, 0x00, 0x00, 0x6c, 0x00, 0x00, 0x00,
  0x04, 0x00, 0x00, 0x00, 0x72, 0xfa, 0xff, 0xff, 0x04, 0x00, 0x00, 0x00,
  0x58, 0x00, 0x00, 0x00, 0x0c, 0x00, 0x00, 0x00, 0x08, 0x00, 0x0e, 0x00,
  0x08, 0x00, 0x04, 0x00, 0x08, 0x00, 0x00, 0x00, 0x10, 0x00, 0x00, 0x00,
  0x28, 0x00, 0x00, 0x00, 0x00, 0x00, 0x06, 0x00, 0x08, 0x00, 0x04, 0x00,
  0x06, 0x00, 0x00, 0x00, 0x04, 0x00, 0x00, 0x00, 0x01, 0x00, 0x00, 0x00,
  0xea, 0x03, 0x00, 0x00, 0x00, 0x00, 0x0a, 0x00, 0x10, 0x00, 0x0c, 0x00,
  0x08, 0x00, 0x04, 0x00, 0x0a, 0x00, 0x00, 0x00, 0x02, 0x00, 0x00, 0x00,
  0x02, 0x00, 0x00, 0x00, 0x04, 0x00, 0x00, 0x00, 0x06, 0x00, 0x00, 0x00,
  0x32, 0x2e, 0x31, 0x35, 0x2e, 0x30, 0x00, 0x00, 0xd6, 0xfa, 0xff, 0xff,
  0x04, 0x00, 0x00, 0x00, 0x10, 0x00, 0x00, 0x00, 0x31, 0x2e, 0x35, 0x2e,
  0x30, 0x00, 0x00, 0x00, 0x00, 0x00, 0x00, 0x00, 0x00, 0x00, 0x00, 0x00,
  0xc0, 0xf5, 0xff, 0xff, 0xc4, 0xf5, 0xff, 0xff, 0xc8, 0xf5, 0xff, 0xff,
  0xfe, 0xfa, 0xff, 0xff, 0x04, 0x00, 0x00, 0x00, 0x40, 0x00, 0x00, 0x00,
  0x37, 0xe8, 0x71, 0xbf, 0xe1, 0x37, 0x9b, 0x3f, 0x76, 0x18, 0xe2, 0x3e,
  0xb6, 0x4d, 0x04, 0x3f, 0xe3, 0x5f, 0x09, 0xbf, 0x07, 0x8b, 0xa1, 0xbe,
  0x24, 0xa3, 0xff, 0xbe, 0xcc, 0x92, 0x28, 0x3d, 0x67, 0x28, 0xc9, 0x3e,
  0x4c, 0x44, 0x04, 0x3e, 0x24, 0xb0, 0x90, 0xbe, 0x27, 0x5f, 0xac, 0x3f,
  0xc0, 0xbe, 0xa3, 0x3e, 0xa3, 0x6a, 0xe1, 0x3e, 0x41, 0xbb, 0x05, 0x40,
  0x7c, 0xea, 0x02, 0x3f, 0x4a, 0xfb, 0xff, 0xff, 0x04, 0x00, 0x00, 0x00,
  0x00, 0x04, 0x00, 0x00, 0x7a, 0x4e, 0xf5, 0xbe, 0x1b, 0x89, 0xd0, 0x3e,
  0xad, 0x23, 0xc0, 0x3e, 0x55, 0x15, 0x04, 0x3f, 0x67, 0x40, 0x18, 0x3e,
  0x52, 0xce, 0x8c, 0xbe, 0xf8, 0x8c, 0x23, 0x3e, 0x0e, 0xac, 0x5e, 0xbe,
  0xcc, 0xcb, 0xc2, 0xbe, 0xd9, 0x20, 0xbc, 0xbe, 0xc4, 0xf6, 0xc1, 0x3d,
  0xdf, 0x80, 0xdb, 0xbe, 0x1a, 0x24, 0xe8, 0xbe, 0xfe, 0xe6, 0xa7, 0xbe,
  0xe1, 0x52, 0x86, 0xbe, 0xcd, 0x10, 0xd1, 0xbe, 0x45, 0x79, 0x92, 0xbe,
  0x62, 0xef, 0x3c, 0x3e, 0xf5, 0x96, 0x64, 0xbf, 0x91, 0x9d, 0xcb, 0x3e,
  0x68, 0xc9, 0x58, 0xbf, 0x56, 0x90, 0xa2, 0xbe, 0x14, 0x70, 0xe9, 0xbe,
  0xc9, 0xbc, 0xf8, 0x3e, 0x23, 0xdb, 0xce, 0x3e, 0xa9, 0x5d, 0x8b, 0x3e,
  0x91, 0xab, 0x93, 0x3e, 0x2a, 0x3b, 0xa8, 0x3e, 0x02, 0xe2, 0xb9, 0xbe,
  0xad, 0xcf, 0x98, 0x3e, 0xbd, 0x3c, 0x41, 0x3e, 0x8a, 0xda, 0x2f, 0x3e,
  0x25, 0x66, 0x7d, 0x3e, 0xc2, 0xb4, 0x77, 0x3e, 0x7a, 0xcb, 0x99, 0x3e,
  0x6f, 0x48, 0x18, 0xbe, 0x5c, 0xb0, 0x8e, 0xbd, 0x0f, 0x10, 0xb0, 0x3e,
  0xbe, 0x60, 0x32, 0x3e, 0x07, 0x9f, 0x6e, 0x3e, 0x72, 0x23, 0x31, 0x3e,
  0xd8, 0x5d, 0x4f, 0xbd, 0x1d, 0x10, 0xb5, 0xbe, 0xdd, 0xd8, 0x80, 0xbe,
  0xf3, 0x29, 0x6f, 0x3e, 0x55, 0xb5, 0x80, 0x3e, 0xc4, 0x07, 0x1a, 0xbe,
  0xac, 0x53, 0xe1, 0xbd, 0x49, 0xb6, 0xb6, 0x3e, 0x0e, 0x99, 0x11, 0x3e,
  0x96, 0x5b, 0x9a, 0xbe, 0x8c, 0x46, 0x94, 0xbd, 0x0c, 0x23, 0xcb, 0x3d,
  0x3c, 0x70, 0xae, 0xbe, 0xac, 0x25, 0xb8, 0x3d, 0x6b, 0x1e, 0x71, 0xbe,
  0xc7, 0x86, 0x87, 0x3e, 0xde, 0x21, 0x5c, 0x3e, 0x69, 0x9a, 0x8f, 0x3e,
  0x14, 0xc3, 0x60, 0xbe, 0xdb, 0x09, 0xd5, 0xbe, 0x3b, 0x8f, 0x94, 0x3e,
  0x66, 0x3e, 0x3b, 0x3e, 0x46, 0x46, 0x65, 0x3e, 0x11, 0x5b, 0x53, 0x3d,
  0x12, 0x0a, 0x30, 0x3e, 0x1d, 0x86, 0x81, 0xbe, 0x9d, 0x7c, 0x89, 0xbe,
  0x62, 0xcc, 0xf6, 0xbe, 0x4a, 0x39, 0x0a, 0x3e, 0x3e, 0x87, 0xbf, 0x3e,
  0xc2, 0x48, 0x49, 0xbd, 0x69, 0x9d, 0xd1, 0x3e, 0xa0, 0xef, 0xc7, 0xbc,
  0xe0, 0x0b, 0x37, 0x3d, 0x03, 0x93, 0x97, 0x3e, 0x86, 0x17, 0x6c, 0xbe,
  0xd1, 0x3f, 0x8c, 0x3e, 0xa7, 0x1b, 0xf1, 0x3e, 0x10, 0x73, 0x7d, 0xbd,
  0xda, 0xdf, 0x2d, 0xbe, 0x28, 0xd2, 0x23, 0xbd, 0x6a, 0x56, 0x4d, 0x3d,
  0x64, 0xe0, 0x62, 0x3d, 0x15, 0x7e, 0x16, 0xbe, 0xb8, 0xf5, 0xec, 0xbd,
  0xba, 0x8c, 0xcc, 0x3e, 0x09, 0xac, 0x75, 0xbe, 0x36, 0x23, 0x4a, 0xbe,
  0x38, 0xdd, 0xcd, 0xbe, 0x3b, 0xc4, 0xa8, 0x3e, 0x0d, 0x77, 0x37, 0x3d,
  0x31, 0x41, 0x25, 0x3e, 0xa9, 0x10, 0xcb, 0x3e, 0x48, 0xca, 0xa5, 0x3e,
  0x47, 0x29, 0x95, 0x3e, 0x8e, 0x50, 0xe8, 0x3e, 0x70, 0xd7, 0xd5, 0x3c,
  0x90, 0x34, 0xe3, 0x3d, 0xc2, 0x22, 0x95, 0x3e, 0xd3, 0x4c, 0x37, 0x3c,
  0xd2, 0x39, 0xba, 0xbe, 0xda, 0x87, 0xd9, 0xbe, 0xf3, 0xdc, 0xd6, 0x3e,
  0x0c, 0xd2, 0xc3, 0xbd, 0xdc, 0xce, 0xcc, 0xbd, 0x8a, 0x17, 0x3b, 0x3e,
  0x40, 0xc2, 0x8c, 0xbe, 0x0b, 0x55, 0x9e, 0xbe, 0x2e, 0x8f, 0x5b, 0x3e,
  0x6b, 0x41, 0xc8, 0x3d, 0x1e, 0x24, 0x69, 0xbe, 0xd9, 0x30, 0xf6, 0xbd,
  0xf8, 0xe0, 0xee, 0xbd, 0x54, 0xfe, 0xd8, 0x3e, 0xdd, 0xc2, 0xa2, 0x3e,
  0x5f, 0x84, 0x1b, 0xbe, 0xa8, 0xa6, 0x36, 0xbe, 0xe7, 0x12, 0xdd, 0xbe,
  0x1e, 0xb3, 0x8e, 0xbe, 0x79, 0xe0, 0x81, 0x3e, 0xa0, 0x31, 0xdd, 0xbe,
  0x27, 0xa2, 0xda, 0x3e, 0xf6, 0xf2, 0xfd, 0xbd, 0x09, 0x9b, 0x72, 0xbe,
  0x88, 0x24, 0xc4, 0xbd, 0xf2, 0x6e, 0xcf, 0x3e, 0x9c, 0xb2, 0x4e, 0xbe,
  0x19, 0xcf, 0xa1, 0x3e, 0xb1, 0x64, 0xa6, 0xbe, 0xf0, 0xdf, 0xa1, 0xbe,
  0xe0, 0x4c, 0xc3, 0xbd, 0x2c, 0x2c, 0xd3, 0x3d, 0x2c, 0x0a, 0x6b, 0xbe,
  0xa1, 0x32, 0x3e, 0xbd, 0xc8, 0x84, 0x96, 0x3d, 0x84, 0xc8, 0x82, 0xbe,
  0x9d, 0xb8, 0xcd, 0x3e, 0x4a, 0x65, 0x8d, 0xbe, 0x33, 0x1c, 0x80, 0xbd,
  0x70, 0x80, 0xfb, 0xbe, 0xaf, 0xc4, 0xc8, 0x3e, 0xe0, 0xbe, 0x01, 0xbe,
  0x60, 0x90, 0xd3, 0xbc, 0x7f, 0xc7, 0xab, 0xbe, 0xa8, 0x6c, 0x89, 0xbe,
  0xe0, 0xb4, 0x42, 0xbe, 0x14, 0x64, 0xd8, 0xbd, 0xe0, 0xf3, 0x03, 0xbd,
  0x8a, 0xb6, 0x5b, 0x3e, 0xad, 0x5d, 0x9a, 0x3e, 0x57, 0x40, 0x70, 0xbe,
  0x0a, 0x1f, 0x58, 0x3e, 0xbc, 0x55, 0xa7, 0xbd, 0x1e, 0x39, 0xdc, 0xbe,
  0xb0, 0x7d, 0x90, 0xbe, 0xd7, 0x9e, 0x8b, 0x3e, 0xda, 0x08, 0xb8, 0xbe,
  0xb9, 0xe3, 0x4c, 0xbe, 0x5c, 0x13, 0xe0, 0xbd, 0x72, 0x07, 0xd2, 0xbe,
  0x04, 0x47, 0xcd, 0x3d, 0x2c, 0xf9, 0xca, 0xbe, 0x20, 0x66, 0xe2, 0x3c,
  0x04, 0xd6, 0xd0, 0x3d, 0xd4, 0xa8, 0xf6, 0x3d, 0x80, 0x33, 0xc2, 0x3c,
  0x6e, 0x5e, 0xb9, 0xbe, 0xa4, 0x79, 0x0d, 0xbe, 0xe9, 0x30, 0xb2, 0x3e,
  0x80, 0x31, 0x52, 0x3b, 0x2f, 0xd5, 0x60, 0xbe, 0x40, 0x88, 0x89, 0xbe,
  0xc1, 0xcc, 0x8b, 0x3e, 0x84, 0x72, 0xe0, 0xbd, 0x9f, 0x1c, 0x85, 0x3e,
  0x74, 0xd9, 0xe3, 0x3e, 0xbd, 0x82, 0x9d, 0x3e, 0x7d, 0x69, 0x07, 0xbf,
  0x4f, 0x25, 0x07, 0xbe, 0x77, 0xfb, 0x6b, 0xbf, 0x29, 0xd1, 0x89, 0x3e,
  0x72, 0xb4, 0xd1, 0xbe, 0x54, 0x48, 0x11, 0x3e, 0xd9, 0xe1, 0x94, 0x3e,
  0x4d, 0xce, 0x86, 0x3e, 0xde, 0xba, 0x03, 0xbe, 0xa9, 0x0c, 0xb9, 0x3d,
  0x21, 0x6a, 0x1d, 0x3e, 0xe0, 0x11, 0xe7, 0x3c, 0x99, 0x5f, 0x0f, 0x3e,
  0x5a, 0x8b, 0x26, 0xbe, 0x80, 0xaa, 0xa2, 0xbe, 0x1d, 0x68, 0xa3, 0x3e,
  0x4a, 0xda, 0xac, 0xbd, 0xff, 0x51, 0x21, 0x3e, 0xd7, 0x09, 0xb1, 0x3e,
  0xd3, 0xba, 0xd0, 0x3e, 0xf1, 0x57, 0x81, 0x3e, 0x52, 0xab, 0x02, 0x3e,
  0x60, 0xee, 0xf4, 0xbc, 0x00, 0xd8, 0x81, 0xb9, 0x8f, 0x97, 0x80, 0x3e,
  0xe6, 0x80, 0xe5, 0xbe, 0x3e, 0x3b, 0xd2, 0x3e, 0x36, 0xad, 0xb6, 0xbe,
  0x9e, 0xe8, 0xcc, 0x3e, 0x8d, 0x0e, 0x8f, 0x3e, 0x56, 0x1d, 0x93, 0xbe,
  0x11, 0xd5, 0x47, 0xbe, 0x14, 0xd1, 0x6f, 0xbd, 0x75, 0x9a, 0xfd, 0xbd,
  0xa4, 0xca, 0x6b, 0xbe, 0x00, 0x2c, 0x80, 0xbb, 0xfc, 0x73, 0xe5, 0x3b,
  0xa3, 0x71, 0x07, 0x3e, 0x0e, 0x3e, 0x0c, 0x3e, 0x9f, 0xb6, 0xb5, 0x3e,
  0x81, 0x70, 0x80, 0x3e, 0x29, 0xd1, 0x86, 0x3e, 0x24, 0x38, 0xc5, 0xbe,
  0x90, 0xc0, 0x89, 0x3c, 0xc8, 0xd5, 0x0f, 0x3d, 0x9f, 0x00, 0xb8, 0x3e,
  0xfd, 0xb2, 0x44, 0xbd, 0x7d, 0xd8, 0xd1, 0x3e, 0x42, 0xeb, 0x86, 0x3e,
  0x86, 0x51, 0xba, 0xbe, 0xb2, 0x13, 0x14, 0x3f, 0x64, 0x39, 0xa6, 0xbe,
  0x73, 0xeb, 0x46, 0x3e, 0xfc, 0x87, 0xd5, 0xbe, 0x85, 0x07, 0x80, 0x3e,
  0x20, 0x37, 0xad, 0x3c, 0x2a, 0x4a, 0x43, 0x3e, 0xce, 0x8f, 0x27, 0x3e,
  0x24, 0x5d, 0xbf, 0x3e, 0x09, 0x0a, 0xa2, 0xbe, 0x23, 0x34, 0x42, 0x3e,
  0x00, 0x4d, 0x34, 0x3d, 0x05, 0x3c, 0x66, 0xbe, 0x93, 0x46, 0x88, 0xbe,
  0xfe, 0x4e, 0x52, 0x3e, 0x1f, 0x66, 0x6c, 0x3e, 0xc4, 0xfc, 0x83, 0x3e,
  0xec, 0x65, 0x85, 0x3d, 0x4c, 0x1a, 0xe7, 0xbd, 0x2d, 0x38, 0x9f, 0xbe,
  0xbb, 0x0b, 0x4f, 0xbe, 0xbd, 0x6a, 0x4a, 0xbe, 0x1d, 0x12, 0xb4, 0x3e,
  0x3b, 0x2f, 0x5d, 0xbe, 0x77, 0xfd, 0xa0, 0xbe, 0x32, 0xf3, 0x19, 0x3e,
  0x65, 0x20, 0x19, 0x3e, 0x54, 0x4a, 0x04, 0xbe, 0x56, 0xff, 0xff, 0xff,
  0x04, 0x00, 0x00, 0x00, 0x40, 0x00, 0x00, 0x00, 0xda, 0x3c, 0xad, 0x3e,
  0x4b, 0xad, 0x9c, 0xbe, 0x62, 0xc1, 0x99, 0x3e, 0xd9, 0xd0, 0x57, 0x3e,
  0x82, 0x6d, 0x90, 0x3e, 0xe0, 0xff, 0x47, 0xbd, 0xa6, 0x29, 0xd6, 0x3e,
  0x4a, 0xce, 0x9d, 0x3e, 0xf8, 0xca, 0xab, 0xbd, 0xdc, 0x70, 0xc8, 0xbe,
  0xa0, 0xc8, 0x7a, 0xbd, 0xb4, 0x5e, 0xb2, 0x3e, 0xba, 0x14, 0xb8, 0x3e,
  0x78, 0x2d, 0xc8, 0xbe, 0xc6, 0xcd, 0xac, 0x3e, 0x5d, 0xcd, 0x8a, 0xbe,
  0xa2, 0xff, 0xff, 0xff, 0x04, 0x00, 0x00, 0x00, 0x40, 0x00, 0x00, 0x00,
  0xf3, 0x0a, 0x5d, 0x3e, 0x00, 0x00, 0x00, 0x00, 0xfb, 0xb4, 0x11, 0xbf,
  0x11, 0xa2, 0x2d, 0x3f, 0xe7, 0x63, 0x33, 0xbf, 0x00, 0x00, 0x00, 0x00,
  0x85, 0xb2, 0x10, 0xbf, 0x05, 0x8f, 0xd9, 0x3e, 0x00, 0x00, 0x00, 0x00,
  0x00, 0x00, 0x00, 0x00, 0x00, 0x00, 0x00, 0x00, 0x98, 0xac, 0x1e, 0x3d,
  0x0f, 0x46, 0xb2, 0xbe, 0x00, 0x00, 0x00, 0x00, 0xcc, 0x17, 0x8d, 0xbb,
  0x00, 0x00, 0x00, 0x00, 0xee, 0xff, 0xff, 0xff, 0x04, 0x00, 0x00, 0x00,
  0x04, 0x00, 0x00, 0x00, 0xbc, 0xac, 0xae, 0xbe, 0x00, 0x00, 0x06, 0x00,
  0x08, 0x00, 0x04, 0x00, 0x06, 0x00, 0x00, 0x00, 0x04, 0x00, 0x00, 0x00,
  0x40, 0x00, 0x00, 0x00, 0x6b, 0x1a, 0x5a, 0x3e, 0x1b, 0x42, 0x0e, 0x3e,
  0x99, 0x36, 0x8d, 0xbe, 0x00, 0x00, 0x00, 0x00, 0x96, 0x32, 0x8f, 0x3d,
  0x1f, 0xf2, 0x15, 0x3e, 0xd6, 0x3b, 0x0f, 0x3d, 0x8f, 0x2e, 0xa7, 0xbd,
  0x3d, 0xfc, 0xdf, 0xbc, 0x00, 0x00, 0x00, 0x00, 0x00, 0x00, 0x00, 0x00,
  0x59, 0x8b, 0x04, 0x3e, 0x65, 0xdd, 0x8d, 0xbe, 0x1e, 0xce, 0xed, 0xbc,
  0x48, 0x5c, 0x1e, 0xbf, 0xe6, 0x5d, 0x22, 0xbc, 0x20, 0xfb, 0xff, 0xff,
  0x24, 0xfb, 0xff, 0xff, 0x0f, 0x00, 0x00, 0x00, 0x4d, 0x4c, 0x49, 0x52,
  0x20, 0x43, 0x6f, 0x6e, 0x76, 0x65, 0x72, 0x74, 0x65, 0x64, 0x2e, 0x00,
  0x01, 0x00, 0x00, 0x00, 0x14, 0x00, 0x00, 0x00, 0x00, 0x00, 0x0e, 0x00,
  0x18, 0x00, 0x14, 0x00, 0x10, 0x00, 0x0c, 0x00, 0x08, 0x00, 0x04, 0x00,
  0x0e, 0x00, 0x00, 0x00, 0x14, 0x00, 0x00, 0x00, 0x1c, 0x00, 0x00, 0x00,
  0xd8, 0x00, 0x00, 0x00, 0xdc, 0x00, 0x00, 0x00, 0xe0, 0x00, 0x00, 0x00,
  0x04, 0x00, 0x00, 0x00, 0x6d, 0x61, 0x69, 0x6e, 0x00, 0x00, 0x00, 0x00,
  0x03, 0x00, 0x00, 0x00, 0x80, 0x00, 0x00, 0x00, 0x38, 0x00, 0x00, 0x00,
  0x04, 0x00, 0x00, 0x00, 0x9a, 0xff, 0xff, 0xff, 0x10, 0x00, 0x00, 0x00,
  0x00, 0x00, 0x00, 0x08, 0x0c, 0x00, 0x00, 0x00, 0x10, 0x00, 0x00, 0x00,
  0x9c, 0xfb, 0xff, 0xff, 0x01, 0x00, 0x00, 0x00, 0x09, 0x00, 0x00, 0x00,
  0x03, 0x00, 0x00, 0x00, 0x08, 0x00, 0x00, 0x00, 0x06, 0x00, 0x00, 0x00,
  0x02, 0x00, 0x00, 0x00, 0xca, 0xff, 0xff, 0xff, 0x10, 0x00, 0x00, 0x00,
  0x00, 0x00, 0x00, 0x08, 0x10, 0x00, 0x00, 0x00, 0x14, 0x00, 0x00, 0x00,
  0xba, 0xff, 0xff, 0xff, 0x00, 0x00, 0x00, 0x01, 0x01, 0x00, 0x00, 0x00,
  0x08, 0x00, 0x00, 0x00, 0x03, 0x00, 0x00, 0x00, 0x07, 0x00, 0x00, 0x00,
  0x05, 0x00, 0x00, 0x00, 0x01, 0x00, 0x00, 0x00, 0x00, 0x00, 0x0e, 0x00,
  0x16, 0x00, 0x00, 0x00, 0x10, 0x00, 0x0c, 0x00, 0x0b, 0x00, 0x04, 0x00,
  0x0e, 0x00, 0x00, 0x00, 0x18, 0x00, 0x00, 0x00, 0x00, 0x00, 0x00, 0x08,
  0x18, 0x00, 0x00, 0x00, 0x1c, 0x00, 0x00, 0x00, 0x00, 0x00, 0x06, 0x00,
  0x08, 0x00, 0x07, 0x00, 0x06, 0x00, 0x00, 0x00, 0x00, 0x00, 0x00, 0x01,
  0x01, 0x00, 0x00, 0x00, 0x07, 0x00, 0x00, 0x00, 0x03, 0x00, 0x00, 0x00,
  0x00, 0x00, 0x00, 0x00, 0x04, 0x00, 0x00, 0x00, 0x03, 0x00, 0x00, 0x00,
  0x01, 0x00, 0x00, 0x00, 0x09, 0x00, 0x00, 0x00, 0x01, 0x00, 0x00, 0x00,
  0x00, 0x00, 0x00, 0x00, 0x0a, 0x00, 0x00, 0x00, 0x8c, 0x03, 0x00, 0x00,
  0x1c, 0x03, 0x00, 0x00, 0xac, 0x02, 0x00, 0x00, 0x58, 0x02, 0x00, 0x00,
  0x10, 0x02, 0x00, 0x00, 0xc4, 0x01, 0x00, 0x00, 0x78, 0x01, 0x00, 0x00,
  0xf0, 0x00, 0x00, 0x00, 0x60, 0x00, 0x00, 0x00, 0x04, 0x00, 0x00, 0x00,
  0xb2, 0xfc, 0xff, 0xff, 0x00, 0x00, 0x00, 0x01, 0x14, 0x00, 0x00, 0x00,
  0x1c, 0x00, 0x00, 0x00, 0x1c, 0x00, 0x00, 0x00, 0x0a, 0x00, 0x00, 0x00,
  0x34, 0x00, 0x00, 0x00, 0x02, 0x00, 0x00, 0x00, 0xff, 0xff, 0xff, 0xff,
  0x01, 0x00, 0x00, 0x00, 0x9c, 0xfc, 0xff, 0xff, 0x19, 0x00, 0x00, 0x00,
  0x53, 0x74, 0x61, 0x74, 0x65, 0x66, 0x75, 0x6c, 0x50, 0x61, 0x72, 0x74,
  0x69, 0x74, 0x69, 0x6f, 0x6e, 0x65, 0x64, 0x43, 0x61, 0x6c, 0x6c, 0x3a,
  0x30, 0x00, 0x00, 0x00, 0x02, 0x00, 0x00, 0x00, 0x01, 0x00, 0x00, 0x00,
  0x01, 0x00, 0x00, 0x00, 0x0a, 0xfd, 0xff, 0xff, 0x00, 0x00, 0x00, 0x01,
  0x14, 0x00, 0x00, 0x00, 0x1c, 0x00, 0x00, 0x00, 0x1c, 0x00, 0x00, 0x00,
  0x09, 0x00, 0x00, 0x00, 0x68, 0x00, 0x00, 0x00, 0x02, 0x00, 0x00, 0x00,
  0xff, 0xff, 0xff, 0xff, 0x10, 0x00, 0x00, 0x00, 0xf4, 0xfc, 0xff, 0xff,
  0x4c, 0x00, 0x00, 0x00, 0x73, 0x65, 0x71, 0x75, 0x65, 0x6e, 0x74, 0x69,
  0x61, 0x6c, 0x2f, 0x64, 0x65, 0x6e, 0x73, 0x65, 0x5f, 0x31, 0x2f, 0x4d,
  0x61, 0x74, 0x4d, 0x75, 0x6c, 0x3b, 0x73, 0x65, 0x71, 0x75, 0x65, 0x6e,
  0x74, 0x69, 0x61, 0x6c, 0x2f, 0x64, 0x65, 0x6e, 0x73, 0x65, 0x5f, 0x31,
  0x2f, 0x52, 0x65, 0x6c, 0x75, 0x3b, 0x73, 0x65, 0x71, 0x75, 0x65, 0x6e,
  0x74, 0x69, 0x61, 0x6c, 0x2f, 0x64, 0x65, 0x6e, 0x73, 0x65, 0x5f, 0x31,
  0x2f, 0x42, 0x69, 0x61, 0x73, 0x41, 0x64, 0x64, 0x00, 0x00, 0x00, 0x00,
  0x02, 0x00, 0x00, 0x00, 0x01, 0x00, 0x00, 0x00, 0x10, 0x00, 0x00, 0x00,
  0x96, 0xfd, 0xff, 0xff, 0x00, 0x00, 0x00, 0x01, 0x14, 0x00, 0x00, 0x00,
  0x1c, 0x00, 0x00, 0x00, 0x1c, 0x00, 0x00, 0x00, 0x08, 0x00, 0x00, 0x00,
  0x60, 0x00, 0x00, 0x00, 0x02, 0x00, 0x00, 0x00, 0xff, 0xff, 0xff, 0xff,
  0x10, 0x00, 0x00, 0x00, 0x80, 0xfd, 0xff, 0xff, 0x46, 0x00, 0x00, 0x00,
  0x73, 0x65, 0x71, 0x75, 0x65, 0x6e, 0x74, 0x69, 0x61, 0x6c, 0x2f, 0x64,
  0x65, 0x6e, 0x73, 0x65, 0x2f, 0x4d, 0x61, 0x74, 0x4d, 0x75, 0x6c, 0x3b,
  0x73, 0x65, 0x71, 0x75, 0x65, 0x6e, 0x74, 0x69, 0x61, 0x6c, 0x2f, 0x64,
  0x65, 0x6e, 0x73, 0x65, 0x2f, 0x52, 0x65, 0x6c, 0x75, 0x3b, 0x73, 0x65,
  0x71, 0x75, 0x65, 0x6e, 0x74, 0x69, 0x61, 0x6c, 0x2f, 0x64, 0x65, 0x6e,
  0x73, 0x65, 0x2f, 0x42, 0x69, 0x61, 0x73, 0x41, 0x64, 0x64, 0x00, 0x00,
  0x02, 0x00, 0x00, 0x00, 0x01, 0x00, 0x00, 0x00, 0x10, 0x00, 0x00, 0x00,
  0x86, 0xfe, 0xff, 0xff, 0x00, 0x00, 0x00, 0x01, 0x10, 0x00, 0x00, 0x00,
  0x10, 0x00, 0x00, 0x00, 0x07, 0x00, 0x00, 0x00, 0x28, 0x00, 0x00, 0x00,
  0xf4, 0xfd, 0xff, 0xff, 0x19, 0x00, 0x00, 0x00, 0x73, 0x65, 0x71, 0x75,
  0x65, 0x6e, 0x74, 0x69, 0x61, 0x6c, 0x2f, 0x64, 0x65, 0x6e, 0x73, 0x65,
  0x5f, 0x32, 0x2f, 0x4d, 0x61, 0x74, 0x4d, 0x75, 0x6c, 0x00, 0x00, 0x00,
  0x02, 0x00, 0x00, 0x00, 0x01, 0x00, 0x00, 0x00, 0x10, 0x00, 0x00, 0x00,
  0xce, 0xfe, 0xff, 0xff, 0x00, 0x00, 0x00, 0x01, 0x10, 0x00, 0x00, 0x00,
  0x10, 0x00, 0x00, 0x00, 0x06, 0x00, 0x00, 0x00, 0x28, 0x00, 0x00, 0x00,
  0x3c, 0xfe, 0xff, 0xff, 0x19, 0x00, 0x00, 0x00, 0x73, 0x65, 0x71, 0x75,
  0x65, 0x6e, 0x74, 0x69, 0x61, 0x6c, 0x2f, 0x64, 0x65, 0x6e, 0x73, 0x65,
  0x5f, 0x31, 0x2f, 0x4d, 0x61, 0x74, 0x4d, 0x75, 0x6c, 0x00, 0x00, 0x00,
  0x02, 0x00, 0x00, 0x00, 0x10, 0x00, 0x00, 0x00, 0x10, 0x00, 0x00, 0x00,
  0x16, 0xff, 0xff, 0xff, 0x00, 0x00, 0x00, 0x01, 0x10, 0x00, 0x00, 0x00,
  0x10, 0x00, 0x00, 0x00, 0x05, 0x00, 0x00, 0x00, 0x24, 0x00, 0x00, 0x00,
  0x84, 0xfe, 0xff, 0xff, 0x17, 0x00, 0x00, 0x00, 0x73, 0x65, 0x71, 0x75,
  0x65, 0x6e, 0x74, 0x69, 0x61, 0x6c, 0x2f, 0x64, 0x65, 0x6e, 0x73, 0x65,
  0x2f, 0x4d, 0x61, 0x74, 0x4d, 0x75, 0x6c, 0x00, 0x02, 0x00, 0x00, 0x00,
  0x10, 0x00, 0x00, 0x00, 0x01, 0x00, 0x00, 0x00, 0x5a, 0xff, 0xff, 0xff,
  0x00, 0x00, 0x00, 0x01, 0x10, 0x00, 0x00, 0x00, 0x10, 0x00, 0x00, 0x00,
  0x04, 0x00, 0x00, 0x00, 0x34, 0x00, 0x00, 0x00, 0xc8, 0xfe, 0xff, 0xff,
  0x27, 0x00, 0x00, 0x00, 0x73, 0x65, 0x71, 0x75, 0x65, 0x6e, 0x74, 0x69,
  0x61, 0x6c, 0x2f, 0x64, 0x65, 0x6e, 0x73, 0x65, 0x2f, 0x42, 0x69, 0x61,
  0x73, 0x41, 0x64, 0x64, 0x2f, 0x52, 0x65, 0x61, 0x64, 0x56, 0x61, 0x72,
  0x69, 0x61, 0x62, 0x6c, 0x65, 0x4f, 0x70, 0x00, 0x01, 0x00, 0x00, 0x00,
  0x10, 0x00, 0x00, 0x00, 0xaa, 0xff, 0xff, 0xff, 0x00, 0x00, 0x00, 0x01,
  0x10, 0x00, 0x00, 0x00, 0x10, 0x00, 0x00, 0x00, 0x03, 0x00, 0x00, 0x00,
  0x38, 0x00, 0x00, 0x00, 0x18, 0xff, 0xff, 0xff, 0x29, 0x00, 0x00, 0x00,
  0x73, 0x65, 0x71, 0x75, 0x65, 0x6e, 0x74, 0x69, 0x61, 0x6c, 0x2f, 0x64,
  0x65, 0x6e, 0x73, 0x65, 0x5f, 0x32, 0x2f, 0x42, 0x69, 0x61, 0x73, 0x41,
  0x64, 0x64, 0x2f, 0x52, 0x65, 0x61, 0x64, 0x56, 0x61, 0x72, 0x69, 0x61,
  0x62, 0x6c, 0x65, 0x4f, 0x70, 0x00, 0x00, 0x00, 0x01, 0x00, 0x00, 0x00,
  0x01, 0x00, 0x00, 0x00, 0x00, 0x00, 0x16, 0x00, 0x18, 0x00, 0x14, 0x00,
  0x00, 0x00, 0x10, 0x00, 0x0c, 0x00, 0x08, 0x00, 0x00, 0x00, 0x00, 0x00,
  0x00, 0x00, 0x07, 0x00, 0x16, 0x00, 0x00, 0x00, 0x00, 0x00, 0x00, 0x01,
  0x10, 0x00, 0x00, 0x00, 0x10, 0x00, 0x00, 0x00, 0x02, 0x00, 0x00, 0x00,
  0x38, 0x00, 0x00, 0x00, 0x84, 0xff, 0xff, 0xff, 0x29, 0x00, 0x00, 0x00,
  0x73, 0x65, 0x71, 0x75, 0x65, 0x6e, 0x74, 0x69, 0x61, 0x6c, 0x2f, 0x64,
  0x65, 0x6e, 0x73, 0x65, 0x5f, 0x31, 0x2f, 0x42, 0x69, 0x61, 0x73, 0x41,
  0x64, 0x64, 0x2f, 0x52, 0x65, 0x61, 0x64, 0x56, 0x61, 0x72, 0x69, 0x61,
  0x62, 0x6c, 0x65, 0x4f, 0x70, 0x00, 0x00, 0x00, 0x01, 0x00, 0x00, 0x00,
  0x10, 0x00, 0x00, 0x00, 0x00, 0x00, 0x16, 0x00, 0x1c, 0x00, 0x18, 0x00,
  0x00, 0x00, 0x14, 0x00, 0x10, 0x00, 0x0c, 0x00, 0x00, 0x00, 0x00, 0x00,
  0x08, 0x00, 0x07, 0x00, 0x16, 0x00, 0x00, 0x00, 0x00, 0x00, 0x00, 0x01,
  0x14, 0x00, 0x00, 0x00, 0x20, 0x00, 0x00, 0x00, 0x20, 0x00, 0x00, 0x00,
  0x01, 0x00, 0x00, 0x00, 0x3c, 0x00, 0x00, 0x00, 0x02, 0x00, 0x00, 0x00,
  0xff, 0xff, 0xff, 0xff, 0x01, 0x00, 0x00, 0x00, 0x04, 0x00, 0x04, 0x00,
  0x04, 0x00, 0x00, 0x00, 0x1d, 0x00, 0x00, 0x00, 0x73, 0x65, 0x72, 0x76,
  0x69, 0x6e, 0x67, 0x5f, 0x64, 0x65, 0x66, 0x61, 0x75, 0x6c, 0x74, 0x5f,
  0x64, 0x65, 0x6e, 0x73, 0x65, 0x5f, 0x69, 0x6e, 0x70, 0x75, 0x74, 0x3a,
  0x30, 0x00, 0x00, 0x00, 0x02, 0x00, 0x00, 0x00, 0x01, 0x00, 0x00, 0x00,
  0x01, 0x00, 0x00, 0x00, 0x01, 0x00, 0x00, 0x00, 0x10, 0x00, 0x00, 0x00,
  0x0c, 0x00, 0x0c, 0x00, 0x0b, 0x00, 0x00, 0x00, 0x00, 0x00, 0x04, 0x00,
  0x0c, 0x00, 0x00, 0x00, 0x09, 0x00, 0x00, 0x00, 0x00, 0x00, 0x00, 0x09
 
};

#endif //SINE_WAVE_H